#ifndef TFLITE_MODEL_H_
#define TFLITE_MODEL_H_

const unsigned char tflite_model[] = {0x1c,0x0,0x0,0x0,0x54,0x46,0x4c,0x33,0x14,0x0,0x20,0x0,0x1c,0x0,0x18,0x0,0x14,0x0,0x10,0x0,0xc,0x0,0x0,0x0,0x8,0x0,0x4,0x0,0x14,0x0,0x0,0x0,0x1c,0x0,0x0,0x0,0x1c,0x0,0x0,0x0,0x74,0x0,0x0,0x0,0x64,0xa,0x0,0x0,0x74,0xa,0x0,0x0,0x40,0x22,0x0,0x0,0x3,0x0,0x0,0x0,0x0,0x0,0x0,0x0,0x2,0x0,0x0,0x0,0x34,0x0,0x0,0x0,0x4,0x0,0x0,0x0,0xdc,0xff,0xff,0xff,0x22,0x0,0x0,0x0,0x4,0x0,0x0,0x0,0x13,0x0,0x0,0x0,0x43,0x4f,0x4e,0x56,0x45,0x52,0x53,0x49,0x4f,0x4e,0x5f,0x4d,0x45,0x54,0x41,0x44,0x41,0x54,0x41,0x0,0x8,0x0,0xc,0x0,0x8,0x0,0x4,0x0,0x8,0x0,0x0,0x0,0x21,0x0,0x0,0x0,0x4,0x0,0x0,0x0,0x13,0x0,0x0,0x0,0x6d,0x69,0x6e,0x5f,0x72,0x75,0x6e,0x74,0x69,0x6d,0x65,0x5f,0x76,0x65,0x72,0x73,0x69,0x6f,0x6e,0x0,0x23,0x0,0x0,0x0,0xec,0x9,0x0,0x0,0xe4,0x9,0x0,0x0,0xcc,0x9,0x0,0x0,0xb8,0x9,0x0,0x0,0xa4,0x9,0x0,0x0,0x90,0x9,0x0,0x0,0x7c,0x9,0x0,0x0,0x60,0x9,0x0,0x0,0x48,0x9,0x0,0x0,0x30,0x9,0x0,0x0,0xe0,0x8,0x0,0x0,0xb0,0x8,0x0,0x0,0x20,0x8,0x0,0x0,0x90,0x3,0x0,0x0,0x70,0x3,0x0,0x0,0x20,0x1,0x0,0x0,0xc,0x1,0x0,0x0,0x4,0x1,0x0,0x0,0xfc,0x0,0x0,0x0,0xf4,0x0,0x0,0x0,0xec,0x0,0x0,0x0,0xe4,0x0,0x0,0x0,0xdc,0x0,0x0,0x0,0xd4,0x0,0x0,0x0,0xcc,0x0,0x0,0x0,0xc4,0x0,0x0,0x0,0xbc,0x0,0x0,0x0,0xb4,0x0,0x0,0x0,0xac,0x0,0x0,0x0,0xa4,0x0,0x0,0x0,0x9c,0x0,0x0,0x0,0x94,0x0,0x0,0x0,0x8c,0x0,0x0,0x0,0x6c,0x0,0x0,0x0,0x4,0x0,0x0,0x0,0x4a,0xf4,0xff,0xff,0x4,0x0,0x0,0x0,0x58,0x0,0x0,0x0,0xc,0x0,0x0,0x0,0x8,0x0,0xe,0x0,0x8,0x0,0x4,0x0,0x8,0x0,0x0,0x0,0x10,0x0,0x0,0x0,0x28,0x0,0x0,0x0,0x0,0x0,0x6,0x0,0x8,0x0,0x4,0x0,0x6,0x0,0x0,0x0,0x4,0x0,0x0,0x0,0x1,0x0,0x0,0x0,0xeb,0x3,0x0,0x0,0x0,0x0,0xa,0x0,0x10,0x0,0xc,0x0,0x8,0x0,0x4,0x0,0xa,0x0,0x0,0x0,0x2,0x0,0x0,0x0,0x2,0x0,0x0,0x0,0x4,0x0,0x0,0x0,0x6,0x0,0x0,0x0,0x32,0x2e,0x31,0x32,0x2e,0x30,0x0,0x0,0xae,0xf4,0xff,0xff,0x4,0x0,0x0,0x0,0x10,0x0,0x0,0x0,0x32,0x2e,0x30,0x2e,0x30,0x0,0x0,0x0,0x0,0x0,0x0,0x0,0x0,0x0,0x0,0x0,0x28,0xe0,0xff,0xff,0x2c,0xe0,0xff,0xff,0x30,0xe0,0xff,0xff,0x34,0xe0,0xff,0xff,0x38,0xe0,0xff,0xff,0x3c,0xe0,0xff,0xff,0x40,0xe0,0xff,0xff,0x44,0xe0,0xff,0xff,0x48,0xe0,0xff,0xff,0x4c,0xe0,0xff,0xff,0x50,0xe0,0xff,0xff,0x54,0xe0,0xff,0xff,0x58,0xe0,0xff,0xff,0x5c,0xe0,0xff,0xff,0x60,0xe0,0xff,0xff,0x64,0xe0,0xff,0xff,0xa,0xf5,0xff,0xff,0x4,0x0,0x0,0x0,0x1,0x0,0x0,0x0,0x0,0x0,0x0,0x0,0x1a,0xf5,0xff,0xff,0x4,0x0,0x0,0x0,0x40,0x2,0x0,0x0,0xa7,0x88,0xe6,0x4a,0x8e,0xa1,0xd9,0x3f,0x8e,0xd5,0xe3,0x41,0x9f,0xe0,0xe7,0x42,0x99,0xd0,0xe7,0x45,0x87,0xed,0xf6,0x4d,0x81,0x9a,0xcd,0x32,0x8a,0xb3,0xde,0xc,0x6,0xc6,0x2c,0x6e,0x4,0xc4,0x23,0x57,0x1,0xe9,0x42,0x5c,0xf8,0x16,0x33,0x60,0xf8,0xee,0x35,0x51,0xff,0xd4,0x1b,0x72,0xec,0xc3,0x1d,0x3a,0xf6,0xbe,0x37,0x57,0xf2,0xcf,0x0,0xf8,0xf3,0xc2,0xff,0x1a,0xd7,0xa,0x1e,0x15,0xe1,0x2,0xe7,0xa,0xf3,0xed,0xf8,0x4,0xdf,0x5,0xf7,0xe0,0xd2,0xdf,0xdd,0xfb,0xcd,0xf1,0xb,0xed,0x2e,0xc5,0x8,0x58,0x1b,0xc4,0xf3,0x62,0x1f,0xfe,0x5,0x2d,0x17,0xde,0x17,0x2a,0x15,0x11,0x4,0x5b,0xe,0xec,0xd8,0x56,0x7,0xe5,0xd8,0x2e,0x24,0xee,0xf0,0x1e,0x1,0x1,0xe,0xf2,0xb,0xdf,0x19,0x11,0xf8,0x27,0x1a,0x21,0xea,0xfd,0x2e,0x28,0xec,0x27,0x13,0xfe,0xe5,0x2c,0xc,0xea,0xff,0xf3,0xe7,0x15,0xfd,0xf8,0xf2,0xea,0xf1,0x1,0xd6,0x14,0xb,0xec,0xe2,0x2b,0x6,0x11,0xd,0x35,0x2,0x1e,0xd2,0x2c,0xf0,0x43,0xd3,0x1c,0xed,0x18,0xdf,0x4a,0xee,0x20,0xc7,0x38,0xf8,0x2b,0xa6,0x32,0xf1,0xf1,0x4b,0xd2,0xe1,0x1c,0x44,0xf5,0xeb,0x3d,0x49,0xef,0xeb,0x2f,0x2a,0xc0,0xf3,0x4c,0xc,0xd6,0xea,0x32,0x21,0xb4,0xe1,0x54,0x1,0xa1,0xec,0x34,0xef,0xcb,0xf6,0xfb,0x23,0x98,0xeb,0x6,0xf2,0x9f,0xe2,0x16,0xf3,0xbc,0xe1,0x46,0xe3,0x9e,0xd2,0x50,0xe3,0x86,0xdf,0x39,0xc6,0xa4,0xf6,0xf2,0xb7,0x9f,0xf9,0xfb,0xd1,0x91,0xd6,0x4,0x35,0xab,0xe8,0x2a,0x1c,0xe3,0xe5,0x58,0x16,0x9f,0xe5,0xb,0x14,0xa9,0xe9,0x58,0xff,0xaf,0xee,0x23,0xf7,0xae,0xf5,0xf3,0xfc,0xaa,0xf0,0x18,0xfd,0xa1,0x0,0x4b,0x45,0x6,0xe2,0x1e,0x26,0xfb,0xfc,0x71,0x2b,0xe8,0xff,0x7c,0x26,0xf8,0xf7,0x5a,0xc,0xb8,0xef,0x68,0x2b,0xd6,0xf9,0x37,0x13,0x9d,0xf4,0xa,0x30,0xa9,0xe4,0xff,0xd2,0x55,0xd8,0xd5,0xb3,0x2d,0xd9,0xe2,0xaa,0x4f,0xfc,0xf7,0xcc,0x36,0xec,0xc7,0xcc,0x15,0xe7,0xdb,0xd1,0x12,0x8,0x8,0xe3,0x3f,0xfe,0xf7,0xee,0x8,0xfd,0xb,0xf0,0x1d,0xf9,0xd8,0xe1,0x25,0xff,0x20,0xd3,0x41,0x4,0xd4,0xf3,0x23,0xf7,0xf6,0x2,0x1e,0x8,0x25,0xed,0x18,0xf,0x29,0x5,0xfe,0x15,0x3d,0xfb,0x13,0xd6,0xf6,0xb0,0x29,0xf1,0xb0,0xa0,0x20,0xfa,0xef,0xba,0x33,0xfb,0xa8,0xb3,0x17,0x13,0xb9,0xbf,0x23,0x4,0xb8,0xfe,0x33,0xfa,0xe3,0xea,0xc,0x15,0xd2,0xe,0x20,0xff,0x26,0xde,0x58,0xff,0xf,0xc3,0x54,0x19,0xeb,0xd3,0x72,0x24,0xc5,0xf8,0x58,0x20,0xc9,0xf3,0x40,0x14,0xf,0x9,0x6b,0x27,0x2e,0x16,0x4d,0x1b,0x8,0x49,0x37,0xbf,0xdd,0xc3,0x5f,0xdb,0x93,0x95,0x7f,0xdc,0x92,0xbc,0x4a,0xcc,0x81,0xe4,0x56,0xfe,0x91,0xb,0x50,0xe1,0xa8,0x14,0x40,0xee,0xe4,0x31,0x40,0xe4,0xe6,0x2d,0x6a,0xdb,0x22,0xbd,0x33,0xf1,0xca,0xc3,0x2e,0xf8,0xdd,0xca,0x11,0xe,0xea,0xec,0x34,0x16,0xcb,0xec,0x11,0x1b,0x1a,0x21,0x8,0xe,0x1c,0xc,0x32,0x19,0x1b,0x1f,0x2b,0xe0,0xbc,0xb,0xb6,0xd8,0xa7,0x2d,0xc9,0xe0,0xcc,0x32,0xcf,0xd6,0x99,0x28,0xa8,0xf0,0xe9,0x4f,0xb4,0x1,0xf5,0x2f,0xa1,0xed,0xf6,0x3c,0x87,0xf3,0x23,0x22,0xb7,0xdf,0xeb,0x49,0x15,0xea,0xef,0x47,0x0,0xed,0xd7,0x57,0xfa,0xf1,0xf3,0x56,0xeb,0xed,0x7,0x6a,0x1b,0x3,0xec,0x7f,0x14,0xec,0xd,0x62,0xf8,0xed,0x3e,0x5c,0xeb,0x66,0xf7,0xff,0xff,0x4,0x0,0x0,0x0,0x10,0x0,0x0,0x0,0x65,0xf9,0xff,0xff,0xfd,0xff,0xff,0xff,0xf8,0xff,0xff,0xff,0x10,0xa,0x0,0x0,0x82,0xf7,0xff,0xff,0x4,0x0,0x0,0x0,0x80,0x4,0x0,0x0,0xf0,0x2c,0x15,0x9c,0x1c,0x3d,0x1c,0x81,0x5,0x6,0x23,0x99,0x13,0x47,0x2e,0xc8,0x14,0x4,0x1f,0xe6,0x1e,0x34,0x2a,0xe9,0xfd,0x15,0x24,0xe5,0x0,0x30,0x36,0xe4,0xd,0xe,0x38,0xe9,0x2c,0x7a,0x21,0x8c,0xd,0x3d,0x6c,0xa4,0x48,0x2d,0x5c,0x86,0x33,0x34,0x6a,0xfd,0x1f,0x1,0x72,0xdf,0x1,0x35,0x60,0xf0,0x7,0x1c,0x58,0x1,0x1d,0x24,0x7f,0xc2,0x32,0x37,0x5a,0x2b,0x58,0x19,0x2e,0xc3,0x10,0x34,0x8,0x8b,0x12,0x4c,0x47,0xa0,0x38,0x5b,0x60,0x94,0x41,0x53,0x6d,0x81,0x1,0x40,0x14,0x82,0x20,0x60,0x1f,0x1,0x30,0x50,0x3c,0xe,0xe9,0x51,0x74,0x2a,0x81,0xe9,0xea,0x16,0xab,0xdf,0xe4,0x30,0xf0,0xf4,0xd7,0x2c,0xed,0xf3,0x5,0x19,0xfa,0xa,0xf0,0x19,0x13,0xe5,0x7,0xfd,0x4,0xf8,0xfe,0xff,0x0,0x12,0x11,0x18,0x25,0x0,0xfb,0x18,0x8,0xe1,0x86,0x24,0x1c,0xdf,0xb8,0x20,0x35,0xf7,0xa1,0x18,0xf5,0xe6,0x8b,0xf,0xb,0xd2,0xa5,0x1e,0x33,0xd9,0x81,0x9,0xfc,0x3,0x90,0x15,0x12,0xe2,0xac,0x12,0x22,0xf8,0x82,0xf9,0x13,0x4b,0xf6,0xbe,0xf9,0x38,0xc,0x81,0x10,0x1d,0x3d,0x87,0x39,0xe,0x1f,0xb1,0x1c,0x33,0x32,0xb0,0x2f,0x26,0x43,0xaa,0x32,0xd,0x14,0xfe,0x15,0x26,0xd,0xd4,0xf5,0x23,0x3b,0x14,0x4a,0x1a,0x53,0xa2,0x19,0x2a,0x34,0x81,0x41,0x12,0xf9,0xaa,0xfb,0x4c,0x39,0xcf,0xc,0x3f,0x1b,0xa0,0xfb,0xfb,0x1d,0x82,0x5,0x5f,0x39,0x5,0x3e,0x30,0x1a,0xf4,0xa,0x15,0x3d,0x13,0xc,0xf0,0x84,0x4c,0x2d,0x2,0xa5,0x35,0x21,0xe6,0xa0,0xc,0x15,0xd4,0x8f,0xd,0x17,0xda,0x83,0xff,0xf9,0xea,0x81,0xfa,0x12,0xfc,0x97,0x17,0xf,0xde,0xbe,0xd,0x1f,0xf8,0x8c,0xe6,0x25,0x48,0x32,0x9a,0xff,0x45,0x4a,0x9f,0x1c,0x16,0xfd,0x81,0x3,0x10,0x35,0xc7,0x3b,0x2a,0x2b,0x9a,0x14,0x40,0x4d,0xb8,0x0,0x35,0x29,0xc7,0x7,0x36,0x4b,0xdc,0x29,0x13,0x33,0xf1,0x1d,0xf4,0xe9,0x26,0xe,0xd7,0xf7,0x34,0x17,0xee,0x7,0x35,0xf0,0xf8,0x81,0x2,0x3,0xe1,0xad,0xa,0x23,0xee,0xa4,0x3,0xfd,0xf2,0xa2,0xe,0x1b,0xdd,0x9c,0x10,0x14,0xa,0x86,0x12,0x5,0xc4,0x9e,0x3b,0xc,0xea,0xbc,0x33,0xeb,0xb5,0x9f,0x64,0x28,0xb3,0x8e,0x41,0x39,0xd1,0x87,0x38,0x35,0xd2,0xa9,0x53,0xcd,0xee,0xac,0x4b,0x32,0xc9,0xac,0x2e,0x33,0xd2,0x81,0x27,0x1b,0xa5,0x9e,0x7f,0x1a,0xb6,0xc1,0x2d,0x30,0xb9,0xc2,0x71,0x11,0xdf,0xc7,0x2a,0xb,0x2,0x9d,0x20,0xf1,0xb3,0xa5,0x5c,0x27,0xf9,0xa8,0x6b,0x2b,0x17,0xbb,0x4c,0x1f,0xef,0x87,0x42,0x32,0x39,0x2f,0x81,0xff,0x23,0x27,0xa4,0x30,0x2b,0x35,0xba,0x5,0x1b,0x5a,0xaf,0x1a,0x33,0x35,0xd3,0xf,0x23,0x40,0xc5,0x19,0x3e,0x33,0x7,0x3a,0x2d,0x4a,0x1a,0x8,0x14,0x4a,0xc4,0x5c,0x58,0x4c,0x85,0xf9,0x12,0xf4,0x96,0x3f,0x6,0x49,0x81,0x1e,0xe,0x37,0x94,0x45,0x4c,0x5b,0xa9,0xf3,0x54,0x65,0xb8,0xea,0x3d,0x37,0x8,0x18,0x13,0x2c,0x16,0x1f,0x4,0x41,0xc3,0x3c,0x3b,0x29,0xbe,0x19,0x12,0xf7,0xab,0x20,0x42,0x43,0x81,0x1b,0x11,0x1e,0xb5,0xf7,0x52,0x53,0xb6,0x5,0x3f,0x17,0x99,0x1,0x47,0xc,0xf7,0x39,0x29,0x2d,0xd7,0x21,0x12,0x53,0xf3,0xfc,0x35,0x11,0x98,0x2a,0x27,0x1e,0x8e,0x1b,0x30,0xff,0x95,0x2,0x11,0x3a,0xa6,0x7,0x5,0xd,0x81,0x1a,0xa,0x43,0xb3,0x7,0x35,0x10,0xf5,0x8,0xf1,0x12,0x0,0x12,0xfc,0x45,0xe6,0x26,0xf0,0x46,0xe7,0xe,0xdd,0x25,0xe3,0x4,0xf2,0x2e,0xcc,0x16,0x1c,0x81,0xd4,0xf4,0x19,0x9d,0xba,0x29,0x7,0x5e,0xc6,0xbf,0x39,0xb3,0xb1,0xdc,0x24,0xfd,0xd5,0xd5,0x1b,0x52,0xae,0x1b,0x8,0xbb,0x1d,0x1b,0xe,0xba,0xf,0x1d,0xf8,0xbd,0x0,0x11,0xd9,0xac,0x18,0x6,0xd8,0xbf,0x3,0x1b,0xe5,0x9c,0x6,0x4,0xe4,0xa7,0x12,0x8,0xed,0xae,0x18,0x17,0xde,0x81,0x6,0x81,0xe9,0xfa,0x22,0xae,0xda,0xeb,0x29,0xd2,0xdc,0x0,0x2d,0xef,0xf7,0xf2,0x13,0x1b,0xfe,0xea,0x2,0x5,0xf3,0x2,0x13,0xb,0xef,0x19,0x13,0xe,0xb,0x16,0x3,0x32,0xfe,0xe,0x7,0x81,0xdc,0xd4,0x33,0x89,0x8,0xdb,0x28,0xcc,0xea,0xf5,0x31,0xe1,0xf3,0xfb,0x13,0xfd,0x4,0xf6,0x18,0x23,0xf3,0xde,0xe,0xa,0x2,0x1d,0x28,0x19,0x19,0xc,0x8,0x14,0x2,0xc,0x2,0x10,0xf4,0xa0,0x17,0x19,0x5,0xc7,0x19,0x29,0xff,0xb6,0x0,0x15,0xe6,0xac,0xa,0xff,0xdb,0xa1,0x1b,0x18,0xd7,0xaf,0xe,0xfa,0xfb,0xa2,0x7,0x1a,0xe2,0x9b,0x1b,0x12,0xf6,0x81,0x9,0xf,0xc,0x1,0xf9,0x1f,0xec,0x8,0xea,0xc,0x0,0x10,0xe1,0x9,0xed,0x92,0x0,0x1e,0xe9,0x9c,0x1,0x0,0xe7,0xb1,0xc,0x9,0xec,0x81,0x18,0x4,0xd6,0x97,0x17,0x1c,0xde,0x98,0xd,0x1e,0xfb,0xb2,0x8,0x28,0x0,0xb1,0xe7,0x21,0xf2,0xba,0xd5,0x13,0xe9,0xa5,0x21,0xc,0xdc,0x92,0xfd,0x16,0xdc,0x81,0x6,0x0,0xee,0x87,0x16,0x1e,0xdd,0x90,0xfc,0x9,0xe5,0x86,0x1,0x81,0xfa,0xeb,0x2f,0x91,0xf8,0xe4,0x35,0xc4,0xf0,0xe0,0x22,0xf0,0xeb,0x1,0x1a,0x1a,0x10,0xe2,0xf,0xfb,0x12,0xe2,0xf,0x7,0xd,0x22,0x1f,0x4,0x13,0x9,0x8,0x24,0x8,0x2,0x1,0xe,0x43,0x3,0xba,0x0,0x39,0x39,0x81,0x19,0x40,0x4,0xb3,0x32,0x12,0x15,0xbd,0x37,0x40,0x3e,0x89,0x1b,0x2b,0x2e,0x8a,0x24,0x16,0x1e,0xd8,0x3,0x24,0x40,0xf9,0x5,0xf9,0x2a,0xe,0x81,0xff,0xeb,0x16,0xba,0xee,0xeb,0x10,0xe0,0xfb,0xef,0x1e,0xda,0x7,0xfc,0x1e,0xd5,0x0,0x5,0x17,0xfc,0xea,0xdd,0x1c,0x3,0x12,0xf5,0x1a,0xa,0x13,0xf1,0xd,0x25,0xfb,0xf0,0x13,0x2b,0xd,0x54,0xb3,0x45,0x42,0x54,0x83,0xee,0x4a,0x38,0x81,0x26,0x3d,0x6e,0x9e,0x8,0x26,0x5a,0xd7,0x42,0x9,0x23,0xf6,0x1e,0x5e,0x69,0xff,0x7,0x50,0x33,0xc,0xe,0xe3,0x2b,0xfc,0xf8,0x2a,0x38,0x9d,0xfa,0x2d,0xf9,0xab,0x34,0x1e,0x11,0xaa,0x11,0x1f,0x38,0x81,0x25,0x1c,0x14,0x8e,0x2c,0x33,0x10,0xbe,0x36,0x17,0x3e,0x23,0xff,0x2d,0x46,0xf2,0x2b,0x3c,0x1e,0xf6,0x45,0x52,0x40,0x81,0x8,0x25,0x3d,0x95,0x1a,0x7,0x8,0x85,0x11,0x61,0x18,0x89,0x45,0x42,0x22,0xbb,0x15,0x57,0x59,0xb4,0x48,0x23,0x40,0xea,0xf,0x3a,0x38,0xa,0xf1,0x4f,0x39,0x9,0x81,0xe1,0xe8,0x2b,0xbb,0xfe,0xef,0xd,0xd4,0xef,0xf5,0x22,0xf7,0xa,0xee,0x1d,0x8,0xf3,0xf3,0x9,0xb,0xf0,0xe4,0x1f,0xa,0xc,0x1a,0x10,0xe,0xf7,0x4,0x1c,0x1c,0x12,0xb,0xb,0x20,0x19,0x29,0xac,0xfa,0x27,0xe,0x9c,0x31,0x25,0x27,0x81,0x36,0x4e,0x4a,0xdb,0x21,0x1c,0x2b,0xbf,0x16,0xf8,0x33,0xcb,0xee,0x7,0x6,0xe1,0x20,0x2e,0xf,0x6,0xe9,0x31,0x2e,0xde,0x98,0xe2,0xe4,0x16,0x81,0xf4,0xf1,0x3e,0xcd,0xd0,0xda,0x3c,0xf0,0xd,0xff,0xc,0xcf,0xea,0xf2,0x1,0xe6,0xc,0xe6,0x2a,0x15,0xef,0xf,0x13,0x7,0xf0,0xfe,0x24,0x26,0xe,0xf,0x11,0xe,0xfc,0xff,0xff,0x4,0x0,0x0,0x0,0x80,0x0,0x0,0x0,0xde,0xff,0xff,0xff,0x64,0xff,0xff,0xff,0xe2,0xfe,0xff,0xff,0xe5,0x0,0x0,0x0,0xb6,0x0,0x0,0x0,0xe2,0xff,0xff,0xff,0xa6,0xff,0xff,0xff,0x5d,0x0,0x0,0x0,0x76,0xff,0xff,0xff,0xc5,0x0,0x0,0x0,0xeb,0x1,0x0,0x0,0x64,0x2,0x0,0x0,0x19,0xff,0xff,0xff,0x35,0xff,0xff,0xff,0x7c,0xff,0xff,0xff,0x27,0xff,0xff,0xff,0x8d,0xff,0xff,0xff,0xf,0x0,0x0,0x0,0xb,0x1,0x0,0x0,0x4f,0x1,0x0,0x0,0x34,0x0,0x0,0x0,0x36,0x0,0x0,0x0,0xf,0x0,0x0,0x0,0x7,0x1,0x0,0x0,0xc9,0xff,0xff,0xff,0xe,0x1,0x0,0x0,0xca,0xfe,0xff,0xff,0xd7,0xff,0xff,0xff,0x59,0xff,0xff,0xff,0xf2,0x0,0x0,0x0,0x4b,0xff,0xff,0xff,0xf9,0x0,0x0,0x0,0x9a,0xfc,0xff,0xff,0x4,0x0,0x0,0x0,0x20,0x0,0x0,0x0,0xa4,0xdf,0xcb,0xca,0xd2,0x3b,0xbe,0xe8,0xf5,0xf4,0x2f,0xf3,0xd0,0xd,0x28,0xc8,0x12,0x3d,0xd8,0x7f,0xc0,0xf8,0xf9,0x4a,0x8,0xf6,0x1c,0xfc,0xd7,0x1,0xbd,0xc,0xc6,0xfc,0xff,0xff,0x4,0x0,0x0,0x0,0x40,0x0,0x0,0x0,0x21,0x25,0x24,0xe6,0x89,0x31,0xee,0xaf,0x4,0xbe,0xe,0xe0,0xd,0x4a,0x26,0xf0,0x4e,0x81,0xb1,0xd7,0xbd,0xb6,0x89,0xf6,0x4b,0xed,0x2b,0x2f,0xd,0xe8,0x2c,0xf9,0xf7,0xbd,0xc4,0x41,0x5f,0xcf,0xbc,0x5d,0xc9,0xe9,0x37,0x47,0xc8,0x18,0xdf,0xd3,0xb4,0x27,0xfc,0x1e,0x2c,0x22,0x77,0x35,0x0,0x37,0xd4,0xbd,0xc9,0x34,0xc4,0x32,0x12,0xfd,0xff,0xff,0x4,0x0,0x0,0x0,0x8,0x0,0x0,0x0,0x4b,0xfe,0xff,0xff,0xb5,0x1,0x0,0x0,0x26,0xfd,0xff,0xff,0x4,0x0,0x0,0x0,0x8,0x0,0x0,0x0,0xff,0xff,0xff,0xff,0x20,0x0,0x0,0x0,0x3a,0xfd,0xff,0xff,0x4,0x0,0x0,0x0,0xc,0x0,0x0,0x0,0x0,0x0,0x0,0x0,0x2,0x0,0x0,0x0,0x1,0x0,0x0,0x0,0x52,0xfd,0xff,0xff,0x4,0x0,0x0,0x0,0x4,0x0,0x0,0x0,0x20,0x0,0x0,0x0,0x62,0xfd,0xff,0xff,0x4,0x0,0x0,0x0,0x4,0x0,0x0,0x0,0xff,0xff,0xff,0xff,0x72,0xfd,0xff,0xff,0x4,0x0,0x0,0x0,0x4,0x0,0x0,0x0,0x1,0x0,0x0,0x0,0x82,0xfd,0xff,0xff,0x4,0x0,0x0,0x0,0x4,0x0,0x0,0x0,0x0,0x0,0x0,0x0,0x92,0xfd,0xff,0xff,0x4,0x0,0x0,0x0,0x8,0x0,0x0,0x0,0x1,0x0,0x0,0x0,0x2,0x0,0x0,0x0,0x4,0xe9,0xff,0xff,0x8,0xe9,0xff,0xff,0xf,0x0,0x0,0x0,0x4d,0x4c,0x49,0x52,0x20,0x43,0x6f,0x6e,0x76,0x65,0x72,0x74,0x65,0x64,0x2e,0x0,0x1,0x0,0x0,0x0,0x14,0x0,0x0,0x0,0x0,0x0,0xe,0x0,0x18,0x0,0x14,0x0,0x10,0x0,0xc,0x0,0x8,0x0,0x4,0x0,0xe,0x0,0x0,0x0,0x14,0x0,0x0,0x0,0x1c,0x0,0x0,0x0,0xe0,0x3,0x0,0x0,0xe4,0x3,0x0,0x0,0xe8,0x3,0x0,0x0,0x4,0x0,0x0,0x0,0x6d,0x61,0x69,0x6e,0x0,0x0,0x0,0x0,0x10,0x0,0x0,0x0,0x98,0x3,0x0,0x0,0x30,0x3,0x0,0x0,0xd0,0x2,0x0,0x0,0x9c,0x2,0x0,0x0,0x60,0x2,0x0,0x0,0x10,0x2,0x0,0x0,0xcc,0x1,0x0,0x0,0xa4,0x1,0x0,0x0,0x50,0x1,0x0,0x0,0x28,0x1,0x0,0x0,0xf4,0x0,0x0,0x0,0xcc,0x0,0x0,0x0,0x98,0x0,0x0,0x0,0x70,0x0,0x0,0x0,0x38,0x0,0x0,0x0,0x4,0x0,0x0,0x0,0x1a,0xfd,0xff,0xff,0x14,0x0,0x0,0x0,0x0,0x0,0x0,0x9,0x14,0x0,0x0,0x0,0x18,0x0,0x0,0x0,0xa,0x0,0x0,0x0,0x5a,0xfe,0xff,0xff,0x0,0x0,0x80,0x3f,0x1,0x0,0x0,0x0,0x1f,0x0,0x0,0x0,0x1,0x0,0x0,0x0,0x1e,0x0,0x0,0x0,0x4a,0xfd,0xff,0xff,0x14,0x0,0x0,0x0,0x0,0x0,0x0,0x8,0x10,0x0,0x0,0x0,0x14,0x0,0x0,0x0,0x8,0x0,0x0,0x0,0xe8,0xe9,0xff,0xff,0x1,0x0,0x0,0x0,0x1e,0x0,0x0,0x0,0x3,0x0,0x0,0x0,0x1d,0x0,0x0,0x0,0x9,0x0,0x0,0x0,0x8,0x0,0x0,0x0,0xee,0xfe,0xff,0xff,0xc,0x0,0x0,0x0,0x10,0x0,0x0,0x0,0x7,0x0,0x0,0x0,0x1,0x0,0x0,0x0,0x1d,0x0,0x0,0x0,0x2,0x0,0x0,0x0,0x1c,0x0,0x0,0x0,0x7,0x0,0x0,0x0,0xa2,0xfd,0xff,0xff,0x14,0x0,0x0,0x0,0x0,0x0,0x0,0x15,0x10,0x0,0x0,0x0,0x14,0x0,0x0,0x0,0xb,0x0,0x0,0x0,0x40,0xea,0xff,0xff,0x1,0x0,0x0,0x0,0x1c,0x0,0x0,0x0,0x2,0x0,0x0,0x0,0x17,0x0,0x0,0x0,0x1b,0x0,0x0,0x0,0x42,0xff,0xff,0xff,0xc,0x0,0x0,0x0,0x10,0x0,0x0,0x0,0x9,0x0,0x0,0x0,0x1,0x0,0x0,0x0,0x1b,0x0,0x0,0x0,0x2,0x0,0x0,0x0,0x1a,0x0,0x0,0x0,0x6,0x0,0x0,0x0,0xf6,0xfd,0xff,0xff,0x14,0x0,0x0,0x0,0x0,0x0,0x0,0x9,0x14,0x0,0x0,0x0,0x18,0x0,0x0,0x0,0xa,0x0,0x0,0x0,0x36,0xff,0xff,0xff,0x0,0x0,0x80,0x3f,0x1,0x0,0x0,0x0,0x1a,0x0,0x0,0x0,0x1,0x0,0x0,0x0,0x19,0x0,0x0,0x0,0x96,0xff,0xff,0xff,0xc,0x0,0x0,0x0,0x10,0x0,0x0,0x0,0x9,0x0,0x0,0x0,0x1,0x0,0x0,0x0,0x19,0x0,0x0,0x0,0x2,0x0,0x0,0x0,0x18,0x0,0x0,0x0,0x6,0x0,0x0,0x0,0x4a,0xfe,0xff,0xff,0x20,0x0,0x0,0x0,0x0,0x0,0x0,0x8,0x20,0x0,0x0,0x0,0x24,0x0,0x0,0x0,0x8,0x0,0x0,0x0,0x0,0x0,0xa,0x0,0x8,0x0,0x0,0x0,0x0,0x0,0x7,0x0,0xa,0x0,0x0,0x0,0x0,0x0,0x0,0x1,0x1,0x0,0x0,0x0,0x18,0x0,0x0,0x0,0x3,0x0,0x0,0x0,0x17,0x0,0x0,0x0,0xa,0x0,0x0,0x0,0xff,0xff,0xff,0xff,0x0,0x0,0xa,0x0,0x10,0x0,0xc,0x0,0x8,0x0,0x4,0x0,0xa,0x0,0x0,0x0,0xc,0x0,0x0,0x0,0x10,0x0,0x0,0x0,0x7,0x0,0x0,0x0,0x1,0x0,0x0,0x0,0x17,0x0,0x0,0x0,0x2,0x0,0x0,0x0,0x13,0x0,0x0,0x0,0x16,0x0,0x0,0x0,0xbe,0xfe,0xff,0xff,0x1c,0x0,0x0,0x0,0x0,0x0,0x0,0x3b,0x1c,0x0,0x0,0x0,0x20,0x0,0x0,0x0,0x6,0x0,0x0,0x0,0x0,0x0,0x6,0x0,0x8,0x0,0x4,0x0,0x6,0x0,0x0,0x0,0x3,0x0,0x0,0x0,0x1,0x0,0x0,0x0,0x16,0x0,0x0,0x0,0x3,0x0,0x0,0x0,0x15,0x0,0x0,0x0,0x4,0x0,0x0,0x0,0x5,0x0,0x0,0x0,0xfe,0xfe,0xff,0xff,0x24,0x0,0x0,0x0,0x0,0x0,0x0,0x20,0x24,0x0,0x0,0x0,0x28,0x0,0x0,0x0,0x5,0x0,0x0,0x0,0x0,0x0,0xe,0x0,0x8,0x0,0x0,0x0,0x0,0x0,0x0,0x0,0x0,0x0,0x4,0x0,0xe,0x0,0x0,0x0,0x1,0x0,0x0,0x0,0x1,0x0,0x0,0x0,0x15,0x0,0x0,0x0,0x4,0x0,0x0,0x0,0x14,0x0,0x0,0x0,0x2,0x0,0x0,0x0,0x3,0x0,0x0,0x0,0x3,0x0,0x0,0x0,0x4a,0xff,0xff,0xff,0x1c,0x0,0x0,0x0,0x0,0x0,0x0,0x37,0x1c,0x0,0x0,0x0,0x20,0x0,0x0,0x0,0x4,0x0,0x0,0x0,0x0,0x0,0x6,0x0,0x8,0x0,0x7,0x0,0x6,0x0,0x0,0x0,0x0,0x0,0x0,0x2,0x1,0x0,0x0,0x0,0x14,0x0,0x0,0x0,0x1,0x0,0x0,0x0,0x13,0x0,0x0,0x0,0x82,0xff,0xff,0xff,0x14,0x0,0x0,0x0,0x0,0x0,0x0,0x1b,0x10,0x0,0x0,0x0,0x14,0x0,0x0,0x0,0x3,0x0,0x0,0x0,0x20,0xec,0xff,0xff,0x1,0x0,0x0,0x0,0x13,0x0,0x0,0x0,0x2,0x0,0x0,0x0,0x12,0x0,0x0,0x0,0x1,0x0,0x0,0x0,0xb2,0xff,0xff,0xff,0x20,0x0,0x0,0x0,0x0,0x0,0x0,0x1,0x28,0x0,0x0,0x0,0x2c,0x0,0x0,0x0,0x2,0x0,0x0,0x0,0xc,0x0,0x10,0x0,0x0,0x0,0xc,0x0,0x8,0x0,0x7,0x0,0xc,0x0,0x0,0x0,0x0,0x0,0x0,0x1,0x1,0x0,0x0,0x0,0x1,0x0,0x0,0x0,0x1,0x0,0x0,0x0,0x12,0x0,0x0,0x0,0x3,0x0,0x0,0x0,0x11,0x0,0x0,0x0,0xc,0x0,0x0,0x0,0xb,0x0,0x0,0x0,0x0,0x0,0xe,0x0,0x1a,0x0,0x14,0x0,0x10,0x0,0xc,0x0,0xb,0x0,0x4,0x0,0xe,0x0,0x0,0x0,0x24,0x0,0x0,0x0,0x0,0x0,0x0,0x2,0x30,0x0,0x0,0x0,0x34,0x0,0x0,0x0,0x1,0x0,0x0,0x0,0x0,0x0,0xe,0x0,0x14,0x0,0x0,0x0,0x10,0x0,0xc,0x0,0x8,0x0,0x7,0x0,0xe,0x0,0x0,0x0,0x0,0x0,0x0,0x1,0x4,0x0,0x0,0x0,0x2,0x0,0x0,0x0,0x2,0x0,0x0,0x0,0x1,0x0,0x0,0x0,0x11,0x0,0x0,0x0,0x3,0x0,0x0,0x0,0x10,0x0,0x0,0x0,0xe,0x0,0x0,0x0,0xd,0x0,0x0,0x0,0x0,0x0,0xe,0x0,0x14,0x0,0x0,0x0,0x10,0x0,0xc,0x0,0xb,0x0,0x4,0x0,0xe,0x0,0x0,0x0,0x10,0x0,0x0,0x0,0x0,0x0,0x0,0x1c,0xc,0x0,0x0,0x0,0x10,0x0,0x0,0x0,0xc,0xed,0xff,0xff,0x1,0x0,0x0,0x0,0x10,0x0,0x0,0x0,0x2,0x0,0x0,0x0,0x0,0x0,0x0,0x0,0xf,0x0,0x0,0x0,0x1,0x0,0x0,0x0,0x1f,0x0,0x0,0x0,0x1,0x0,0x0,0x0,0x0,0x0,0x0,0x0,0x20,0x0,0x0,0x0,0x34,0x13,0x0,0x0,0xa8,0x12,0x0,0x0,0x34,0x12,0x0,0x0,0xd4,0x11,0x0,0x0,0x80,0x11,0x0,0x0,0x2c,0x11,0x0,0x0,0xd4,0x10,0x0,0x0,0x84,0x10,0x0,0x0,0x0,0x10,0x0,0x0,0x94,0xf,0x0,0x0,0x18,0xf,0x0,0x0,0x1c,0xd,0x0,0x0,0x30,0xb,0x0,0x0,0x7c,0xa,0x0,0x0,0xb8,0x9,0x0,0x0,0x3c,0x9,0x0,0x0,0xa8,0x8,0x0,0x0,0x7c,0x7,0x0,0x0,0x80,0x6,0x0,0x0,0xec,0x5,0x0,0x0,0x9c,0x5,0x0,0x0,0x48,0x5,0x0,0x0,0xf0,0x4,0x0,0x0,0x68,0x4,0x0,0x0,0xd4,0x3,0x0,0x0,0x40,0x3,0x0,0x0,0xac,0x2,0x0,0x0,0x18,0x2,0x0,0x0,0x8c,0x1,0x0,0x0,0xc,0x1,0x0,0x0,0x70,0x0,0x0,0x0,0x4,0x0,0x0,0x0,0x62,0xed,0xff,0xff,0x0,0x0,0x0,0x1,0x18,0x0,0x0,0x0,0x20,0x0,0x0,0x0,0x3c,0x0,0x0,0x0,0x20,0x0,0x0,0x0,0x0,0x0,0x0,0x9,0x40,0x0,0x0,0x0,0x2,0x0,0x0,0x0,0xff,0xff,0xff,0xff,0x2,0x0,0x0,0x0,0x44,0xed,0xff,0xff,0x8,0x0,0x0,0x0,0x10,0x0,0x0,0x0,0x1,0x0,0x0,0x0,0x80,0xff,0xff,0xff,0xff,0xff,0xff,0xff,0x1,0x0,0x0,0x0,0x0,0x0,0x80,0x3b,0x8,0x0,0x0,0x0,0x49,0x64,0x65,0x6e,0x74,0x69,0x74,0x79,0x0,0x0,0x0,0x0,0x2,0x0,0x0,0x0,0x1,0x0,0x0,0x0,0x2,0x0,0x0,0x0,0xca,0xed,0xff,0xff,0x0,0x0,0x0,0x1,0x18,0x0,0x0,0x0,0x20,0x0,0x0,0x0,0x3c,0x0,0x0,0x0,0x1f,0x0,0x0,0x0,0x0,0x0,0x0,0x9,0x70,0x0,0x0,0x0,0x2,0x0,0x0,0x0,0xff,0xff,0xff,0xff,0x2,0x0,0x0,0x0,0xac,0xed,0xff,0xff,0x8,0x0,0x0,0x0,0x10,0x0,0x0,0x0,0x1,0x0,0x0,0x0,0x18,0x0,0x0,0x0,0x0,0x0,0x0,0x0,0x1,0x0,0x0,0x0,0xd0,0x95,0xb2,0x3d,0x38,0x0,0x0,0x0,0x73,0x65,0x71,0x75,0x65,0x6e,0x74,0x69,0x61,0x6c,0x5f,0x33,0x2f,0x64,0x65,0x6e,0x73,0x65,0x5f,0x33,0x2f,0x4d,0x61,0x74,0x4d,0x75,0x6c,0x3b,0x73,0x65,0x71,0x75,0x65,0x6e,0x74,0x69,0x61,0x6c,0x5f,0x33,0x2f,0x64,0x65,0x6e,0x73,0x65,0x5f,0x33,0x2f,0x42,0x69,0x61,0x73,0x41,0x64,0x64,0x0,0x0,0x0,0x0,0x2,0x0,0x0,0x0,0x1,0x0,0x0,0x0,0x2,0x0,0x0,0x0,0x62,0xee,0xff,0xff,0x0,0x0,0x0,0x1,0x18,0x0,0x0,0x0,0x20,0x0,0x0,0x0,0x3c,0x0,0x0,0x0,0x1e,0x0,0x0,0x0,0x0,0x0,0x0,0x9,0x54,0x0,0x0,0x0,0x2,0x0,0x0,0x0,0xff,0xff,0xff,0xff,0x20,0x0,0x0,0x0,0x44,0xee,0xff,0xff,0x8,0x0,0x0,0x0,0x10,0x0,0x0,0x0,0x1,0x0,0x0,0x0,0x80,0xff,0xff,0xff,0xff,0xff,0xff,0xff,0x1,0x0,0x0,0x0,0x8a,0xc,0xa9,0x3c,0x1e,0x0,0x0,0x0,0x73,0x65,0x71,0x75,0x65,0x6e,0x74,0x69,0x61,0x6c,0x5f,0x33,0x2f,0x66,0x6c,0x61,0x74,0x74,0x65,0x6e,0x5f,0x33,0x2f,0x52,0x65,0x73,0x68,0x61,0x70,0x65,0x0,0x0,0x2,0x0,0x0,0x0,0x1,0x0,0x0,0x0,0x20,0x0,0x0,0x0,0xde,0xee,0xff,0xff,0x0,0x0,0x0,0x1,0x18,0x0,0x0,0x0,0x24,0x0,0x0,0x0,0x40,0x0,0x0,0x0,0x1d,0x0,0x0,0x0,0x0,0x0,0x0,0x9,0x5c,0x0,0x0,0x0,0x3,0x0,0x0,0x0,0xff,0xff,0xff,0xff,0xff,0xff,0xff,0xff,0x20,0x0,0x0,0x0,0xc4,0xee,0xff,0xff,0x8,0x0,0x0,0x0,0x10,0x0,0x0,0x0,0x1,0x0,0x0,0x0,0x80,0xff,0xff,0xff,0xff,0xff,0xff,0xff,0x1,0x0,0x0,0x0,0x8a,0xc,0xa9,0x3c,0x22,0x0,0x0,0x0,0x73,0x65,0x71,0x75,0x65,0x6e,0x74,0x69,0x61,0x6c,0x5f,0x33,0x2f,0x61,0x74,0x74,0x65,0x6e,0x74,0x69,0x6f,0x6e,0x5f,0x6c,0x61,0x79,0x65,0x72,0x5f,0x33,0x2f,0x6d,0x75,0x6c,0x0,0x0,0x3,0x0,0x0,0x0,0x1,0x0,0x0,0x0,0x1,0x0,0x0,0x0,0x20,0x0,0x0,0x0,0x66,0xef,0xff,0xff,0x0,0x0,0x0,0x1,0x18,0x0,0x0,0x0,0x24,0x0,0x0,0x0,0x40,0x0,0x0,0x0,0x1c,0x0,0x0,0x0,0x0,0x0,0x0,0x9,0x64,0x0,0x0,0x0,0x3,0x0,0x0,0x0,0xff,0xff,0xff,0xff,0xff,0xff,0xff,0xff,0x1,0x0,0x0,0x0,0x4c,0xef,0xff,0xff,0x8,0x0,0x0,0x0,0x10,0x0,0x0,0x0,0x1,0x0,0x0,0x0,0x80,0xff,0xff,0xff,0xff,0xff,0xff,0xff,0x1,0x0,0x0,0x0,0x0,0x0,0x80,0x3b,0x2a,0x0,0x0,0x0,0x73,0x65,0x71,0x75,0x65,0x6e,0x74,0x69,0x61,0x6c,0x5f,0x33,0x2f,0x61,0x74,0x74,0x65,0x6e,0x74,0x69,0x6f,0x6e,0x5f,0x6c,0x61,0x79,0x65,0x72,0x5f,0x33,0x2f,0x74,0x72,0x61,0x6e,0x73,0x70,0x6f,0x73,0x65,0x5f,0x31,0x0,0x0,0x3,0x0,0x0,0x0,0x1,0x0,0x0,0x0,0x1,0x0,0x0,0x0,0x1,0x0,0x0,0x0,0xf6,0xef,0xff,0xff,0x0,0x0,0x0,0x1,0x18,0x0,0x0,0x0,0x24,0x0,0x0,0x0,0x44,0x0,0x0,0x0,0x1b,0x0,0x0,0x0,0x0,0x0,0x0,0x9,0x64,0x0,0x0,0x0,0x3,0x0,0x0,0x0,0xff,0xff,0xff,0xff,0x1,0x0,0x0,0x0,0xff,0xff,0xff,0xff,0xdc,0xef,0xff,0xff,0x8,0x0,0x0,0x0,0x14,0x0,0x0,0x0,0x1,0x0,0x0,0x0,0x80,0xff,0xff,0xff,0xff,0xff,0xff,0xff,0x0,0x0,0x0,0x0,0x1,0x0,0x0,0x0,0x0,0x0,0x80,0x3b,0x26,0x0,0x0,0x0,0x73,0x65,0x71,0x75,0x65,0x6e,0x74,0x69,0x61,0x6c,0x5f,0x33,0x2f,0x61,0x74,0x74,0x65,0x6e,0x74,0x69,0x6f,0x6e,0x5f,0x6c,0x61,0x79,0x65,0x72,0x5f,0x33,0x2f,0x53,0x6f,0x66,0x74,0x6d,0x61,0x78,0x0,0x0,0x3,0x0,0x0,0x0,0x1,0x0,0x0,0x0,0x1,0x0,0x0,0x0,0x1,0x0,0x0,0x0,0x86,0xf0,0xff,0xff,0x0,0x0,0x0,0x1,0x18,0x0,0x0,0x0,0x24,0x0,0x0,0x0,0x40,0x0,0x0,0x0,0x1a,0x0,0x0,0x0,0x0,0x0,0x0,0x9,0x64,0x0,0x0,0x0,0x3,0x0,0x0,0x0,0xff,0xff,0xff,0xff,0x1,0x0,0x0,0x0,0xff,0xff,0xff,0xff,0x6c,0xf0,0xff,0xff,0x8,0x0,0x0,0x0,0x10,0x0,0x0,0x0,0x1,0x0,0x0,0x0,0x7f,0x0,0x0,0x0,0x0,0x0,0x0,0x0,0x1,0x0,0x0,0x0,0xbf,0x2e,0x9e,0x3b,0x28,0x0,0x0,0x0,0x73,0x65,0x71,0x75,0x65,0x6e,0x74,0x69,0x61,0x6c,0x5f,0x33,0x2f,0x61,0x74,0x74,0x65,0x6e,0x74,0x69,0x6f,0x6e,0x5f,0x6c,0x61,0x79,0x65,0x72,0x5f,0x33,0x2f,0x74,0x72,0x61,0x6e,0x73,0x70,0x6f,0x73,0x65,0x0,0x0,0x0,0x0,0x3,0x0,0x0,0x0,0x1,0x0,0x0,0x0,0x1,0x0,0x0,0x0,0x1,0x0,0x0,0x0,0x16,0xf1,0xff,0xff,0x0,0x0,0x0,0x1,0x18,0x0,0x0,0x0,0x24,0x0,0x0,0x0,0x44,0x0,0x0,0x0,0x19,0x0,0x0,0x0,0x0,0x0,0x0,0x9,0x64,0x0,0x0,0x0,0x3,0x0,0x0,0x0,0xff,0xff,0xff,0xff,0xff,0xff,0xff,0xff,0x1,0x0,0x0,0x0,0xfc,0xf0,0xff,0xff,0x8,0x0,0x0,0x0,0x14,0x0,0x0,0x0,0x1,0x0,0x0,0x0,0x7f,0x0,0x0,0x0,0x0,0x0,0x0,0x0,0x0,0x0,0x0,0x0,0x1,0x0,0x0,0x0,0xbf,0x2e,0x9e,0x3b,0x26,0x0,0x0,0x0,0x73,0x65,0x71,0x75,0x65,0x6e,0x74,0x69,0x61,0x6c,0x5f,0x33,0x2f,0x61,0x74,0x74,0x65,0x6e,0x74,0x69,0x6f,0x6e,0x5f,0x6c,0x61,0x79,0x65,0x72,0x5f,0x33,0x2f,0x4d,0x61,0x74,0x4d,0x75,0x6c,0x32,0x0,0x0,0x3,0x0,0x0,0x0,0x1,0x0,0x0,0x0,0x1,0x0,0x0,0x0,0x1,0x0,0x0,0x0,0xa6,0xf1,0xff,0xff,0x0,0x0,0x0,0x1,0x18,0x0,0x0,0x0,0x24,0x0,0x0,0x0,0x40,0x0,0x0,0x0,0x18,0x0,0x0,0x0,0x0,0x0,0x0,0x9,0x58,0x0,0x0,0x0,0x3,0x0,0x0,0x0,0xff,0xff,0xff,0xff,0xff,0xff,0xff,0xff,0x20,0x0,0x0,0x0,0x8c,0xf1,0xff,0xff,0x8,0x0,0x0,0x0,0x10,0x0,0x0,0x0,0x1,0x0,0x0,0x0,0x80,0xff,0xff,0xff,0xff,0xff,0xff,0xff,0x1,0x0,0x0,0x0,0x8a,0xc,0xa9,0x3c,0x1e,0x0,0x0,0x0,0x73,0x65,0x71,0x75,0x65,0x6e,0x74,0x69,0x61,0x6c,0x5f,0x33,0x2f,0x72,0x65,0x73,0x68,0x61,0x70,0x65,0x5f,0x33,0x2f,0x52,0x65,0x73,0x68,0x61,0x70,0x65,0x0,0x0,0x3,0x0,0x0,0x0,0x1,0x0,0x0,0x0,0x1,0x0,0x0,0x0,0x20,0x0,0x0,0x0,0xb2,0xf2,0xff,0xff,0x0,0x0,0x0,0x1,0x14,0x0,0x0,0x0,0x14,0x0,0x0,0x0,0x17,0x0,0x0,0x0,0x0,0x0,0x0,0x2,0x34,0x0,0x0,0x0,0x9c,0xf2,0xff,0xff,0x24,0x0,0x0,0x0,0x73,0x65,0x71,0x75,0x65,0x6e,0x74,0x69,0x61,0x6c,0x5f,0x33,0x2f,0x72,0x65,0x73,0x68,0x61,0x70,0x65,0x5f,0x33,0x2f,0x52,0x65,0x73,0x68,0x61,0x70,0x65,0x2f,0x73,0x68,0x61,0x70,0x65,0x0,0x0,0x0,0x0,0x1,0x0,0x0,0x0,0x3,0x0,0x0,0x0,0x6,0xf3,0xff,0xff,0x0,0x0,0x0,0x1,0x14,0x0,0x0,0x0,0x14,0x0,0x0,0x0,0x16,0x0,0x0,0x0,0x0,0x0,0x0,0x2,0x34,0x0,0x0,0x0,0xf0,0xf2,0xff,0xff,0x24,0x0,0x0,0x0,0x73,0x65,0x71,0x75,0x65,0x6e,0x74,0x69,0x61,0x6c,0x5f,0x33,0x2f,0x72,0x65,0x73,0x68,0x61,0x70,0x65,0x5f,0x33,0x2f,0x73,0x74,0x72,0x69,0x64,0x65,0x64,0x5f,0x73,0x6c,0x69,0x63,0x65,0x0,0x0,0x0,0x0,0x0,0x0,0x0,0x0,0x56,0xf3,0xff,0xff,0x0,0x0,0x0,0x1,0x14,0x0,0x0,0x0,0x14,0x0,0x0,0x0,0x15,0x0,0x0,0x0,0x0,0x0,0x0,0x2,0x2c,0x0,0x0,0x0,0x40,0xf3,0xff,0xff,0x1c,0x0,0x0,0x0,0x73,0x65,0x71,0x75,0x65,0x6e,0x74,0x69,0x61,0x6c,0x5f,0x33,0x2f,0x72,0x65,0x73,0x68,0x61,0x70,0x65,0x5f,0x33,0x2f,0x53,0x68,0x61,0x70,0x65,0x0,0x0,0x0,0x0,0x1,0x0,0x0,0x0,0x2,0x0,0x0,0x0,0x1a,0xf3,0xff,0xff,0x0,0x0,0x0,0x1,0x18,0x0,0x0,0x0,0x20,0x0,0x0,0x0,0x40,0x0,0x0,0x0,0x14,0x0,0x0,0x0,0x0,0x0,0x0,0x9,0x68,0x0,0x0,0x0,0x2,0x0,0x0,0x0,0xff,0xff,0xff,0xff,0x20,0x0,0x0,0x0,0xfc,0xf2,0xff,0xff,0x8,0x0,0x0,0x0,0x14,0x0,0x0,0x0,0x1,0x0,0x0,0x0,0x80,0xff,0xff,0xff,0xff,0xff,0xff,0xff,0x0,0x0,0x0,0x0,0x1,0x0,0x0,0x0,0x8a,0xc,0xa9,0x3c,0x2c,0x0,0x0,0x0,0x73,0x65,0x71,0x75,0x65,0x6e,0x74,0x69,0x61,0x6c,0x5f,0x33,0x2f,0x67,0x6c,0x6f,0x62,0x61,0x6c,0x5f,0x61,0x76,0x65,0x72,0x61,0x67,0x65,0x5f,0x70,0x6f,0x6f,0x6c,0x69,0x6e,0x67,0x32,0x64,0x5f,0x33,0x2f,0x4d,0x65,0x61,0x6e,0x0,0x0,0x0,0x0,0x2,0x0,0x0,0x0,0x1,0x0,0x0,0x0,0x20,0x0,0x0,0x0,0xaa,0xf3,0xff,0xff,0x0,0x0,0x0,0x1,0x18,0x0,0x0,0x0,0x28,0x0,0x0,0x0,0x44,0x0,0x0,0x0,0x13,0x0,0x0,0x0,0x0,0x0,0x0,0x9,0xc8,0x0,0x0,0x0,0x4,0x0,0x0,0x0,0xff,0xff,0xff,0xff,0x14,0x0,0x0,0x0,0x4f,0x0,0x0,0x0,0x20,0x0,0x0,0x0,0x94,0xf3,0xff,0xff,0x8,0x0,0x0,0x0,0x10,0x0,0x0,0x0,0x1,0x0,0x0,0x0,0x80,0xff,0xff,0xff,0xff,0xff,0xff,0xff,0x1,0x0,0x0,0x0,0x90,0xb8,0x12,0x3e,0x8b,0x0,0x0,0x0,0x73,0x65,0x71,0x75,0x65,0x6e,0x74,0x69,0x61,0x6c,0x5f,0x33,0x2f,0x63,0x6f,0x6e,0x76,0x32,0x64,0x5f,0x33,0x2f,0x52,0x65,0x6c,0x75,0x3b,0x73,0x65,0x71,0x75,0x65,0x6e,0x74,0x69,0x61,0x6c,0x5f,0x33,0x2f,0x63,0x6f,0x6e,0x76,0x32,0x64,0x5f,0x33,0x2f,0x42,0x69,0x61,0x73,0x41,0x64,0x64,0x3b,0x73,0x65,0x71,0x75,0x65,0x6e,0x74,0x69,0x61,0x6c,0x5f,0x33,0x2f,0x63,0x6f,0x6e,0x76,0x32,0x64,0x5f,0x33,0x2f,0x43,0x6f,0x6e,0x76,0x32,0x44,0x3b,0x73,0x65,0x71,0x75,0x65,0x6e,0x74,0x69,0x61,0x6c,0x5f,0x33,0x2f,0x63,0x6f,0x6e,0x76,0x32,0x64,0x5f,0x33,0x2f,0x42,0x69,0x61,0x73,0x41,0x64,0x64,0x2f,0x52,0x65,0x61,0x64,0x56,0x61,0x72,0x69,0x61,0x62,0x6c,0x65,0x4f,0x70,0x2f,0x72,0x65,0x73,0x6f,0x75,0x72,0x63,0x65,0x0,0x4,0x0,0x0,0x0,0x1,0x0,0x0,0x0,0x14,0x0,0x0,0x0,0x4f,0x0,0x0,0x0,0x20,0x0,0x0,0x0,0xa2,0xf4,0xff,0xff,0x0,0x0,0x0,0x1,0x18,0x0,0x0,0x0,0x28,0x0,0x0,0x0,0x48,0x0,0x0,0x0,0x12,0x0,0x0,0x0,0x0,0x0,0x0,0x9,0xf8,0x0,0x0,0x0,0x4,0x0,0x0,0x0,0xff,0xff,0xff,0xff,0x14,0x0,0x0,0x0,0x4f,0x0,0x0,0x0,0x4,0x0,0x0,0x0,0x8c,0xf4,0xff,0xff,0x8,0x0,0x0,0x0,0x14,0x0,0x0,0x0,0x1,0x0,0x0,0x0,0x80,0xff,0xff,0xff,0xff,0xff,0xff,0xff,0x0,0x0,0x0,0x0,0x1,0x0,0x0,0x0,0x6c,0x13,0xc4,0x3d,0xb6,0x0,0x0,0x0,0x73,0x65,0x71,0x75,0x65,0x6e,0x74,0x69,0x61,0x6c,0x5f,0x33,0x2f,0x64,0x65,0x70,0x74,0x68,0x77,0x69,0x73,0x65,0x5f,0x63,0x6f,0x6e,0x76,0x32,0x64,0x5f,0x33,0x2f,0x52,0x65,0x6c,0x75,0x3b,0x73,0x65,0x71,0x75,0x65,0x6e,0x74,0x69,0x61,0x6c,0x5f,0x33,0x2f,0x64,0x65,0x70,0x74,0x68,0x77,0x69,0x73,0x65,0x5f,0x63,0x6f,0x6e,0x76,0x32,0x64,0x5f,0x33,0x2f,0x42,0x69,0x61,0x73,0x41,0x64,0x64,0x3b,0x73,0x65,0x71,0x75,0x65,0x6e,0x74,0x69,0x61,0x6c,0x5f,0x33,0x2f,0x64,0x65,0x70,0x74,0x68,0x77,0x69,0x73,0x65,0x5f,0x63,0x6f,0x6e,0x76,0x32,0x64,0x5f,0x33,0x2f,0x64,0x65,0x70,0x74,0x68,0x77,0x69,0x73,0x65,0x3b,0x73,0x65,0x71,0x75,0x65,0x6e,0x74,0x69,0x61,0x6c,0x5f,0x33,0x2f,0x64,0x65,0x70,0x74,0x68,0x77,0x69,0x73,0x65,0x5f,0x63,0x6f,0x6e,0x76,0x32,0x64,0x5f,0x33,0x2f,0x42,0x69,0x61,0x73,0x41,0x64,0x64,0x2f,0x52,0x65,0x61,0x64,0x56,0x61,0x72,0x69,0x61,0x62,0x6c,0x65,0x4f,0x70,0x2f,0x72,0x65,0x73,0x6f,0x75,0x72,0x63,0x65,0x0,0x0,0x4,0x0,0x0,0x0,0x1,0x0,0x0,0x0,0x14,0x0,0x0,0x0,0x4f,0x0,0x0,0x0,0x4,0x0,0x0,0x0,0xca,0xf5,0xff,0xff,0x0,0x0,0x0,0x1,0x18,0x0,0x0,0x0,0x28,0x0,0x0,0x0,0x44,0x0,0x0,0x0,0x11,0x0,0x0,0x0,0x0,0x0,0x0,0x9,0x60,0x0,0x0,0x0,0x4,0x0,0x0,0x0,0xff,0xff,0xff,0xff,0x28,0x0,0x0,0x0,0x9d,0x0,0x0,0x0,0x1,0x0,0x0,0x0,0xb4,0xf5,0xff,0xff,0x8,0x0,0x0,0x0,0x10,0x0,0x0,0x0,0x1,0x0,0x0,0x0,0xdb,0xff,0xff,0xff,0xff,0xff,0xff,0xff,0x1,0x0,0x0,0x0,0xdb,0x55,0x31,0x3d,0x20,0x0,0x0,0x0,0x73,0x65,0x71,0x75,0x65,0x6e,0x74,0x69,0x61,0x6c,0x5f,0x33,0x2f,0x6e,0x6f,0x72,0x6d,0x61,0x6c,0x69,0x7a,0x61,0x74,0x69,0x6f,0x6e,0x5f,0x33,0x2f,0x73,0x75,0x62,0x0,0x0,0x0,0x0,0x4,0x0,0x0,0x0,0x1,0x0,0x0,0x0,0x28,0x0,0x0,0x0,0x9d,0x0,0x0,0x0,0x1,0x0,0x0,0x0,0xe2,0xf6,0xff,0xff,0x0,0x0,0x0,0x1,0x14,0x0,0x0,0x0,0x30,0x0,0x0,0x0,0x10,0x0,0x0,0x0,0x0,0x0,0x0,0x9,0x4c,0x0,0x0,0x0,0x2c,0xf6,0xff,0xff,0x8,0x0,0x0,0x0,0x10,0x0,0x0,0x0,0x1,0x0,0x0,0x0,0x0,0x0,0x0,0x0,0x0,0x0,0x0,0x0,0x1,0x0,0x0,0x0,0x7b,0xbe,0x86,0x31,0x22,0x0,0x0,0x0,0x73,0x65,0x71,0x75,0x65,0x6e,0x74,0x69,0x61,0x6c,0x5f,0x33,0x2f,0x6e,0x6f,0x72,0x6d,0x61,0x6c,0x69,0x7a,0x61,0x74,0x69,0x6f,0x6e,0x5f,0x33,0x2f,0x73,0x75,0x62,0x2f,0x79,0x0,0x0,0x4,0x0,0x0,0x0,0x1,0x0,0x0,0x0,0x1,0x0,0x0,0x0,0x1,0x0,0x0,0x0,0x1,0x0,0x0,0x0,0x5a,0xf7,0xff,0xff,0x0,0x0,0x0,0x1,0x28,0x0,0x0,0x0,0x70,0x0,0x0,0x0,0xf,0x0,0x0,0x0,0x0,0x0,0x0,0x9,0x94,0x0,0x0,0x0,0x0,0x0,0x12,0x0,0x10,0x0,0x0,0x0,0x0,0x0,0xc,0x0,0x8,0x0,0x0,0x0,0x0,0x0,0x4,0x0,0x12,0x0,0x0,0x0,0x3,0x0,0x0,0x0,0x8,0x0,0x0,0x0,0x2c,0x0,0x0,0x0,0x4,0x0,0x0,0x0,0x0,0x0,0x0,0x0,0x0,0x0,0x0,0x0,0x0,0x0,0x0,0x0,0x0,0x0,0x0,0x0,0x0,0x0,0x0,0x0,0x0,0x0,0x0,0x0,0x0,0x0,0x0,0x0,0x0,0x0,0x0,0x0,0x0,0x0,0x0,0x0,0x4,0x0,0x0,0x0,0x7b,0x3,0x99,0x3b,0x3,0xb9,0x18,0x3b,0xe6,0x24,0x73,0x3b,0x59,0xc3,0x2d,0x3b,0x29,0x0,0x0,0x0,0x73,0x65,0x71,0x75,0x65,0x6e,0x74,0x69,0x61,0x6c,0x5f,0x33,0x2f,0x64,0x65,0x70,0x74,0x68,0x77,0x69,0x73,0x65,0x5f,0x63,0x6f,0x6e,0x76,0x32,0x64,0x5f,0x33,0x2f,0x64,0x65,0x70,0x74,0x68,0x77,0x69,0x73,0x65,0x0,0x0,0x0,0x4,0x0,0x0,0x0,0x1,0x0,0x0,0x0,0x12,0x0,0x0,0x0,0x8,0x0,0x0,0x0,0x4,0x0,0x0,0x0,0x1a,0xf8,0xff,0xff,0x0,0x0,0x0,0x1,0x14,0x0,0x0,0x0,0x58,0x0,0x0,0x0,0xe,0x0,0x0,0x0,0x0,0x0,0x0,0x2,0x90,0x0,0x0,0x0,0x64,0xf7,0xff,0xff,0x8,0x0,0x0,0x0,0x2c,0x0,0x0,0x0,0x4,0x0,0x0,0x0,0x0,0x0,0x0,0x0,0x0,0x0,0x0,0x0,0x0,0x0,0x0,0x0,0x0,0x0,0x0,0x0,0x0,0x0,0x0,0x0,0x0,0x0,0x0,0x0,0x0,0x0,0x0,0x0,0x0,0x0,0x0,0x0,0x0,0x0,0x0,0x0,0x4,0x0,0x0,0x0,0x72,0xfd,0x53,0x39,0x46,0x96,0xd3,0x38,0xe,0x6e,0x28,0x39,0xae,0xbc,0xf0,0x38,0x3f,0x0,0x0,0x0,0x73,0x65,0x71,0x75,0x65,0x6e,0x74,0x69,0x61,0x6c,0x5f,0x33,0x2f,0x64,0x65,0x70,0x74,0x68,0x77,0x69,0x73,0x65,0x5f,0x63,0x6f,0x6e,0x76,0x32,0x64,0x5f,0x33,0x2f,0x42,0x69,0x61,0x73,0x41,0x64,0x64,0x2f,0x52,0x65,0x61,0x64,0x56,0x61,0x72,0x69,0x61,0x62,0x6c,0x65,0x4f,0x70,0x2f,0x72,0x65,0x73,0x6f,0x75,0x72,0x63,0x65,0x0,0x1,0x0,0x0,0x0,0x4,0x0,0x0,0x0,0xca,0xf8,0xff,0xff,0x0,0x0,0x0,0x1,0x14,0x0,0x0,0x0,0xa4,0x1,0x0,0x0,0xd,0x0,0x0,0x0,0x0,0x0,0x0,0x9,0xbc,0x1,0x0,0x0,0x14,0xf8,0xff,0xff,0x8,0x0,0x0,0x0,0x8,0x1,0x0,0x0,0x20,0x0,0x0,0x0,0x0,0x0,0x0,0x0,0x0,0x0,0x0,0x0,0x0,0x0,0x0,0x0,0x0,0x0,0x0,0x0,0x0,0x0,0x0,0x0,0x0,0x0,0x0,0x0,0x0,0x0,0x0,0x0,0x0,0x0,0x0,0x0,0x0,0x0,0x0,0x0,0x0,0x0,0x0,0x0,0x0,0x0,0x0,0x0,0x0,0x0,0x0,0x0,0x0,0x0,0x0,0x0,0x0,0x0,0x0,0x0,0x0,0x0,0x0,0x0,0x0,0x0,0x0,0x0,0x0,0x0,0x0,0x0,0x0,0x0,0x0,0x0,0x0,0x0,0x0,0x0,0x0,0x0,0x0,0x0,0x0,0x0,0x0,0x0,0x0,0x0,0x0,0x0,0x0,0x0,0x0,0x0,0x0,0x0,0x0,0x0,0x0,0x0,0x0,0x0,0x0,0x0,0x0,0x0,0x0,0x0,0x0,0x0,0x0,0x0,0x0,0x0,0x0,0x0,0x0,0x0,0x0,0x0,0x0,0x0,0x0,0x0,0x0,0x0,0x0,0x0,0x0,0x0,0x0,0x0,0x0,0x0,0x0,0x0,0x0,0x0,0x0,0x0,0x0,0x0,0x0,0x0,0x0,0x0,0x0,0x0,0x0,0x0,0x0,0x0,0x0,0x0,0x0,0x0,0x0,0x0,0x0,0x0,0x0,0x0,0x0,0x0,0x0,0x0,0x0,0x0,0x0,0x0,0x0,0x0,0x0,0x0,0x0,0x0,0x0,0x0,0x0,0x0,0x0,0x0,0x0,0x0,0x0,0x0,0x0,0x0,0x0,0x0,0x0,0x0,0x0,0x0,0x0,0x0,0x0,0x0,0x0,0x0,0x0,0x0,0x0,0x0,0x0,0x0,0x0,0x0,0x0,0x0,0x0,0x0,0x0,0x0,0x0,0x0,0x0,0x0,0x0,0x0,0x0,0x0,0x0,0x0,0x0,0x0,0x0,0x0,0x0,0x0,0x0,0x0,0x0,0x0,0x0,0x0,0x0,0x0,0x0,0x0,0x0,0x0,0x0,0x0,0x0,0x0,0x0,0x0,0x0,0x0,0x0,0x0,0x0,0x0,0x0,0x0,0x0,0x0,0x20,0x0,0x0,0x0,0x59,0x99,0x6d,0x3b,0x98,0x56,0x12,0x3b,0x39,0x7c,0x20,0x3b,0x64,0x50,0xe3,0x3b,0x72,0xb,0xc2,0x3b,0x5c,0xb5,0x59,0x3b,0x97,0x96,0x39,0x3b,0xe9,0x3a,0x9b,0x3b,0x6a,0x75,0x4d,0x3b,0x6a,0x9,0x97,0x3b,0x2c,0xd4,0x1d,0x3b,0x20,0x8a,0x25,0x3b,0x2f,0xdb,0x3b,0x3b,0x7e,0x41,0x22,0x3b,0x15,0x77,0x47,0x3b,0xc7,0x70,0x81,0x3b,0x72,0x19,0x9c,0x3b,0x1b,0xeb,0x7,0x3c,0x27,0x97,0xe2,0x3b,0x8f,0xe4,0xba,0x3b,0xae,0x4a,0xf6,0x3b,0x78,0x86,0xf5,0x3b,0x82,0xa2,0xec,0x3b,0xc9,0x10,0xba,0x3b,0xb0,0xc9,0x63,0x3b,0xec,0xe0,0xbc,0x3b,0x3a,0xdf,0x20,0x3b,0x7c,0xcf,0x50,0x3b,0x18,0x5a,0x2c,0x3b,0x56,0xac,0xf0,0x3b,0xd8,0x9b,0x6f,0x3b,0x5,0x9b,0xaa,0x3b,0x1c,0x0,0x0,0x0,0x73,0x65,0x71,0x75,0x65,0x6e,0x74,0x69,0x61,0x6c,0x5f,0x33,0x2f,0x63,0x6f,0x6e,0x76,0x32,0x64,0x5f,0x33,0x2f,0x43,0x6f,0x6e,0x76,0x32,0x44,0x0,0x0,0x0,0x0,0x4,0x0,0x0,0x0,0x20,0x0,0x0,0x0,0x3,0x0,0x0,0x0,0x3,0x0,0x0,0x0,0x4,0x0,0x0,0x0,0xb2,0xfa,0xff,0xff,0x0,0x0,0x0,0x1,0x14,0x0,0x0,0x0,0xa8,0x1,0x0,0x0,0xc,0x0,0x0,0x0,0x0,0x0,0x0,0x2,0xd8,0x1,0x0,0x0,0xfc,0xf9,0xff,0xff,0x8,0x0,0x0,0x0,0xc,0x1,0x0,0x0,0x20,0x0,0x0,0x0,0x0,0x0,0x0,0x0,0x0,0x0,0x0,0x0,0x0,0x0,0x0,0x0,0x0,0x0,0x0,0x0,0x0,0x0,0x0,0x0,0x0,0x0,0x0,0x0,0x0,0x0,0x0,0x0,0x0,0x0,0x0,0x0,0x0,0x0,0x0,0x0,0x0,0x0,0x0,0x0,0x0,0x0,0x0,0x0,0x0,0x0,0x0,0x0,0x0,0x0,0x0,0x0,0x0,0x0,0x0,0x0,0x0,0x0,0x0,0x0,0x0,0x0,0x0,0x0,0x0,0x0,0x0,0x0,0x0,0x0,0x0,0x0,0x0,0x0,0x0,0x0,0x0,0x0,0x0,0x0,0x0,0x0,0x0,0x0,0x0,0x0,0x0,0x0,0x0,0x0,0x0,0x0,0x0,0x0,0x0,0x0,0x0,0x0,0x0,0x0,0x0,0x0,0x0,0x0,0x0,0x0,0x0,0x0,0x0,0x0,0x0,0x0,0x0,0x0,0x0,0x0,0x0,0x0,0x0,0x0,0x0,0x0,0x0,0x0,0x0,0x0,0x0,0x0,0x0,0x0,0x0,0x0,0x0,0x0,0x0,0x0,0x0,0x0,0x0,0x0,0x0,0x0,0x0,0x0,0x0,0x0,0x0,0x0,0x0,0x0,0x0,0x0,0x0,0x0,0x0,0x0,0x0,0x0,0x0,0x0,0x0,0x0,0x0,0x0,0x0,0x0,0x0,0x0,0x0,0x0,0x0,0x0,0x0,0x0,0x0,0x0,0x0,0x0,0x0,0x0,0x0,0x0,0x0,0x0,0x0,0x0,0x0,0x0,0x0,0x0,0x0,0x0,0x0,0x0,0x0,0x0,0x0,0x0,0x0,0x0,0x0,0x0,0x0,0x0,0x0,0x0,0x0,0x0,0x0,0x0,0x0,0x0,0x0,0x0,0x0,0x0,0x0,0x0,0x0,0x0,0x0,0x0,0x0,0x0,0x0,0x0,0x0,0x0,0x0,0x0,0x0,0x0,0x0,0x0,0x0,0x0,0x0,0x0,0x0,0x0,0x0,0x0,0x0,0x0,0x0,0x0,0x0,0x0,0x0,0x0,0x0,0x0,0x0,0x0,0x0,0x0,0x0,0x0,0x0,0x0,0x20,0x0,0x0,0x0,0x6f,0xfb,0xb5,0x39,0xcd,0x2a,0x60,0x39,0x91,0xd6,0x75,0x39,0xcb,0x1a,0x2e,0x3a,0x7c,0x9f,0x14,0x3a,0x5f,0xbf,0xa6,0x39,0x60,0x25,0x8e,0x39,0xc3,0xc9,0xed,0x39,0x7c,0x5d,0x9d,0x39,0x55,0x5d,0xe7,0x39,0xd6,0xc4,0x71,0x39,0x9f,0x94,0x7d,0x39,0x11,0xe2,0x8f,0x39,0xe8,0x8c,0x78,0x39,0x4e,0xc6,0x98,0x39,0x55,0x48,0xc6,0x39,0xa6,0x1e,0xef,0x39,0xa1,0x34,0x50,0x3a,0xeb,0x8c,0x2d,0x3a,0x2b,0x25,0xf,0x3a,0xdd,0xa3,0x3c,0x3a,0x94,0xd,0x3c,0x3a,0x5f,0x3e,0x35,0x3a,0xf8,0x82,0xe,0x3a,0xb3,0x77,0xae,0x39,0x89,0xaa,0x10,0x3a,0x3a,0x6e,0x76,0x39,0xb2,0xee,0x9f,0x39,0xe,0x2,0x84,0x39,0x34,0x56,0x38,0x3a,0x7f,0x85,0xb7,0x39,0xa1,0xab,0x2,0x3a,0x35,0x0,0x0,0x0,0x73,0x65,0x71,0x75,0x65,0x6e,0x74,0x69,0x61,0x6c,0x5f,0x33,0x2f,0x63,0x6f,0x6e,0x76,0x32,0x64,0x5f,0x33,0x2f,0x42,0x69,0x61,0x73,0x41,0x64,0x64,0x2f,0x52,0x65,0x61,0x64,0x56,0x61,0x72,0x69,0x61,0x62,0x6c,0x65,0x4f,0x70,0x2f,0x72,0x65,0x73,0x6f,0x75,0x72,0x63,0x65,0x0,0x0,0x0,0x1,0x0,0x0,0x0,0x20,0x0,0x0,0x0,0xaa,0xfc,0xff,0xff,0x0,0x0,0x0,0x1,0x14,0x0,0x0,0x0,0x34,0x0,0x0,0x0,0xb,0x0,0x0,0x0,0x0,0x0,0x0,0x9,0x54,0x0,0x0,0x0,0xf4,0xfb,0xff,0xff,0x8,0x0,0x0,0x0,0x14,0x0,0x0,0x0,0x1,0x0,0x0,0x0,0x0,0x0,0x0,0x0,0x0,0x0,0x0,0x0,0x0,0x0,0x0,0x0,0x1,0x0,0x0,0x0,0xe3,0x63,0x93,0x3a,0x25,0x0,0x0,0x0,0x73,0x65,0x71,0x75,0x65,0x6e,0x74,0x69,0x61,0x6c,0x5f,0x33,0x2f,0x61,0x74,0x74,0x65,0x6e,0x74,0x69,0x6f,0x6e,0x5f,0x6c,0x61,0x79,0x65,0x72,0x5f,0x33,0x2f,0x4d,0x61,0x74,0x4d,0x75,0x6c,0x0,0x0,0x0,0x2,0x0,0x0,0x0,0x1,0x0,0x0,0x0,0x20,0x0,0x0,0x0,0x22,0xfd,0xff,0xff,0x0,0x0,0x0,0x1,0x14,0x0,0x0,0x0,0x30,0x0,0x0,0x0,0xa,0x0,0x0,0x0,0x0,0x0,0x0,0x9,0x44,0x0,0x0,0x0,0x6c,0xfc,0xff,0xff,0x8,0x0,0x0,0x0,0x10,0x0,0x0,0x0,0x1,0x0,0x0,0x0,0x0,0x0,0x0,0x0,0x0,0x0,0x0,0x0,0x1,0x0,0x0,0x0,0xa0,0x73,0xf8,0x3b,0x1b,0x0,0x0,0x0,0x73,0x65,0x71,0x75,0x65,0x6e,0x74,0x69,0x61,0x6c,0x5f,0x33,0x2f,0x64,0x65,0x6e,0x73,0x65,0x5f,0x33,0x2f,0x4d,0x61,0x74,0x4d,0x75,0x6c,0x0,0x2,0x0,0x0,0x0,0x2,0x0,0x0,0x0,0x20,0x0,0x0,0x0,0x8a,0xfd,0xff,0xff,0x0,0x0,0x0,0x1,0x14,0x0,0x0,0x0,0x30,0x0,0x0,0x0,0x9,0x0,0x0,0x0,0x0,0x0,0x0,0x2,0x60,0x0,0x0,0x0,0xd4,0xfc,0xff,0xff,0x8,0x0,0x0,0x0,0x10,0x0,0x0,0x0,0x1,0x0,0x0,0x0,0x0,0x0,0x0,0x0,0x0,0x0,0x0,0x0,0x1,0x0,0x0,0x0,0x80,0x10,0x24,0x39,0x34,0x0,0x0,0x0,0x73,0x65,0x71,0x75,0x65,0x6e,0x74,0x69,0x61,0x6c,0x5f,0x33,0x2f,0x64,0x65,0x6e,0x73,0x65,0x5f,0x33,0x2f,0x42,0x69,0x61,0x73,0x41,0x64,0x64,0x2f,0x52,0x65,0x61,0x64,0x56,0x61,0x72,0x69,0x61,0x62,0x6c,0x65,0x4f,0x70,0x2f,0x72,0x65,0x73,0x6f,0x75,0x72,0x63,0x65,0x0,0x0,0x0,0x0,0x1,0x0,0x0,0x0,0x2,0x0,0x0,0x0,0xa,0xfe,0xff,0xff,0x0,0x0,0x0,0x1,0x14,0x0,0x0,0x0,0x14,0x0,0x0,0x0,0x8,0x0,0x0,0x0,0x0,0x0,0x0,0x2,0x2c,0x0,0x0,0x0,0xf4,0xfd,0xff,0xff,0x1c,0x0,0x0,0x0,0x73,0x65,0x71,0x75,0x65,0x6e,0x74,0x69,0x61,0x6c,0x5f,0x33,0x2f,0x66,0x6c,0x61,0x74,0x74,0x65,0x6e,0x5f,0x33,0x2f,0x43,0x6f,0x6e,0x73,0x74,0x0,0x0,0x0,0x0,0x1,0x0,0x0,0x0,0x2,0x0,0x0,0x0,0x56,0xfe,0xff,0xff,0x0,0x0,0x0,0x1,0x14,0x0,0x0,0x0,0x14,0x0,0x0,0x0,0x7,0x0,0x0,0x0,0x0,0x0,0x0,0x2,0x34,0x0,0x0,0x0,0x40,0xfe,0xff,0xff,0x25,0x0,0x0,0x0,0x73,0x65,0x71,0x75,0x65,0x6e,0x74,0x69,0x61,0x6c,0x5f,0x33,0x2f,0x61,0x74,0x74,0x65,0x6e,0x74,0x69,0x6f,0x6e,0x5f,0x6c,0x61,0x79,0x65,0x72,0x5f,0x33,0x2f,0x63,0x6f,0x6e,0x63,0x61,0x74,0x0,0x0,0x0,0x1,0x0,0x0,0x0,0x3,0x0,0x0,0x0,0xaa,0xfe,0xff,0xff,0x0,0x0,0x0,0x1,0x14,0x0,0x0,0x0,0x14,0x0,0x0,0x0,0x6,0x0,0x0,0x0,0x0,0x0,0x0,0x2,0x34,0x0,0x0,0x0,0x94,0xfe,0xff,0xff,0x26,0x0,0x0,0x0,0x73,0x65,0x71,0x75,0x65,0x6e,0x74,0x69,0x61,0x6c,0x5f,0x33,0x2f,0x72,0x65,0x73,0x68,0x61,0x70,0x65,0x5f,0x33,0x2f,0x52,0x65,0x73,0x68,0x61,0x70,0x65,0x2f,0x73,0x68,0x61,0x70,0x65,0x2f,0x32,0x0,0x0,0x0,0x0,0x0,0x0,0xfa,0xfe,0xff,0xff,0x0,0x0,0x0,0x1,0x14,0x0,0x0,0x0,0x14,0x0,0x0,0x0,0x5,0x0,0x0,0x0,0x0,0x0,0x0,0x2,0x34,0x0,0x0,0x0,0xe4,0xfe,0xff,0xff,0x26,0x0,0x0,0x0,0x73,0x65,0x71,0x75,0x65,0x6e,0x74,0x69,0x61,0x6c,0x5f,0x33,0x2f,0x72,0x65,0x73,0x68,0x61,0x70,0x65,0x5f,0x33,0x2f,0x52,0x65,0x73,0x68,0x61,0x70,0x65,0x2f,0x73,0x68,0x61,0x70,0x65,0x2f,0x31,0x0,0x0,0x0,0x0,0x0,0x0,0x4a,0xff,0xff,0xff,0x0,0x0,0x0,0x1,0x14,0x0,0x0,0x0,0x14,0x0,0x0,0x0,0x4,0x0,0x0,0x0,0x0,0x0,0x0,0x2,0x3c,0x0,0x0,0x0,0x34,0xff,0xff,0xff,0x2e,0x0,0x0,0x0,0x73,0x65,0x71,0x75,0x65,0x6e,0x74,0x69,0x61,0x6c,0x5f,0x33,0x2f,0x61,0x74,0x74,0x65,0x6e,0x74,0x69,0x6f,0x6e,0x5f,0x6c,0x61,0x79,0x65,0x72,0x5f,0x33,0x2f,0x63,0x6f,0x6e,0x63,0x61,0x74,0x2f,0x76,0x61,0x6c,0x75,0x65,0x73,0x5f,0x33,0x0,0x0,0x1,0x0,0x0,0x0,0x1,0x0,0x0,0x0,0xa6,0xff,0xff,0xff,0x0,0x0,0x0,0x1,0x14,0x0,0x0,0x0,0x14,0x0,0x0,0x0,0x3,0x0,0x0,0x0,0x0,0x0,0x0,0x2,0x38,0x0,0x0,0x0,0x90,0xff,0xff,0xff,0x2a,0x0,0x0,0x0,0x73,0x65,0x71,0x75,0x65,0x6e,0x74,0x69,0x61,0x6c,0x5f,0x33,0x2f,0x72,0x65,0x73,0x68,0x61,0x70,0x65,0x5f,0x33,0x2f,0x73,0x74,0x72,0x69,0x64,0x65,0x64,0x5f,0x73,0x6c,0x69,0x63,0x65,0x2f,0x73,0x74,0x61,0x63,0x6b,0x0,0x0,0x1,0x0,0x0,0x0,0x1,0x0,0x0,0x0,0x0,0x0,0x16,0x0,0x1c,0x0,0x18,0x0,0x17,0x0,0x10,0x0,0xc,0x0,0x8,0x0,0x0,0x0,0x0,0x0,0x0,0x0,0x7,0x0,0x16,0x0,0x0,0x0,0x0,0x0,0x0,0x1,0x18,0x0,0x0,0x0,0x18,0x0,0x0,0x0,0x2,0x0,0x0,0x0,0x0,0x0,0x0,0x2,0x50,0x0,0x0,0x0,0x4,0x0,0x4,0x0,0x4,0x0,0x0,0x0,0x3e,0x0,0x0,0x0,0x73,0x65,0x71,0x75,0x65,0x6e,0x74,0x69,0x61,0x6c,0x5f,0x33,0x2f,0x67,0x6c,0x6f,0x62,0x61,0x6c,0x5f,0x61,0x76,0x65,0x72,0x61,0x67,0x65,0x5f,0x70,0x6f,0x6f,0x6c,0x69,0x6e,0x67,0x32,0x64,0x5f,0x33,0x2f,0x4d,0x65,0x61,0x6e,0x2f,0x72,0x65,0x64,0x75,0x63,0x74,0x69,0x6f,0x6e,0x5f,0x69,0x6e,0x64,0x69,0x63,0x65,0x73,0x0,0x0,0x1,0x0,0x0,0x0,0x2,0x0,0x0,0x0,0x0,0x0,0x16,0x0,0x20,0x0,0x1c,0x0,0x1b,0x0,0x14,0x0,0x10,0x0,0xc,0x0,0x0,0x0,0x0,0x0,0x8,0x0,0x7,0x0,0x16,0x0,0x0,0x0,0x0,0x0,0x0,0x1,0x18,0x0,0x0,0x0,0x34,0x0,0x0,0x0,0x54,0x0,0x0,0x0,0x1,0x0,0x0,0x0,0x0,0x0,0x0,0x9,0x54,0x0,0x0,0x0,0x4,0x0,0x0,0x0,0xff,0xff,0xff,0xff,0x28,0x0,0x0,0x0,0x9d,0x0,0x0,0x0,0x1,0x0,0x0,0x0,0xc,0x0,0xc,0x0,0x0,0x0,0x0,0x0,0x8,0x0,0x4,0x0,0xc,0x0,0x0,0x0,0x8,0x0,0x0,0x0,0x14,0x0,0x0,0x0,0x1,0x0,0x0,0x0,0xdb,0xff,0xff,0xff,0xff,0xff,0xff,0xff,0x0,0x0,0x0,0x0,0x1,0x0,0x0,0x0,0xdb,0x55,0x31,0x3d,0x7,0x0,0x0,0x0,0x69,0x6e,0x70,0x75,0x74,0x5f,0x34,0x0,0x4,0x0,0x0,0x0,0x1,0x0,0x0,0x0,0x28,0x0,0x0,0x0,0x9d,0x0,0x0,0x0,0x1,0x0,0x0,0x0,0xc,0x0,0x0,0x0,0xe8,0x0,0x0,0x0,0xc8,0x0,0x0,0x0,0xb4,0x0,0x0,0x0,0xa0,0x0,0x0,0x0,0x90,0x0,0x0,0x0,0x74,0x0,0x0,0x0,0x64,0x0,0x0,0x0,0x54,0x0,0x0,0x0,0x40,0x0,0x0,0x0,0x2c,0x0,0x0,0x0,0x18,0x0,0x0,0x0,0x4,0x0,0x0,0x0,0x54,0xff,0xff,0xff,0x12,0x0,0x0,0x0,0x2,0x0,0x0,0x0,0x0,0x0,0x0,0x12,0x64,0xff,0xff,0xff,0x19,0x0,0x0,0x0,0x2,0x0,0x0,0x0,0x0,0x0,0x0,0x19,0x74,0xff,0xff,0xff,0x27,0x0,0x0,0x0,0x2,0x0,0x0,0x0,0x0,0x0,0x0,0x27,0x84,0xff,0xff,0xff,0x9,0x0,0x0,0x0,0x5,0x0,0x0,0x0,0x0,0x0,0x0,0x9,0xdc,0xff,0xff,0xff,0x16,0x0,0x0,0x0,0x0,0x0,0x0,0x16,0xe8,0xff,0xff,0xff,0x53,0x0,0x0,0x0,0x0,0x0,0x0,0x53,0xf4,0xff,0xff,0xff,0x2d,0x0,0x0,0x0,0x0,0x0,0x0,0x2d,0xc,0x0,0xc,0x0,0xb,0x0,0x0,0x0,0x0,0x0,0x4,0x0,0xc,0x0,0x0,0x0,0x4d,0x0,0x0,0x0,0x0,0x0,0x0,0x4d,0xd0,0xff,0xff,0xff,0x28,0x0,0x0,0x0,0x2,0x0,0x0,0x0,0x0,0x0,0x0,0x28,0xe0,0xff,0xff,0xff,0x3,0x0,0x0,0x0,0x3,0x0,0x0,0x0,0x0,0x0,0x0,0x3,0xf0,0xff,0xff,0xff,0x4,0x0,0x0,0x0,0x3,0x0,0x0,0x0,0x0,0x0,0x0,0x4,0xc,0x0,0x10,0x0,0xf,0x0,0x0,0x0,0x8,0x0,0x4,0x0,0xc,0x0,0x0,0x0,0x29,0x0,0x0,0x0,0x2,0x0,0x0,0x0,0x0,0x0,0x0,0x29};

#endif  // TFLITE_MODEL_H_